/**
  ******************************************************************************
  * @file    predictive_maintenance_model_data_params.c
  * @author  AST Embedded Analytics Research Platform
  * @date    2025-03-21T11:24:10+0100
  * @brief   AI Tool Automatic Code Generator for Embedded NN computing
  ******************************************************************************
  * Copyright (c) 2025 STMicroelectronics.
  * All rights reserved.
  *
  * This software is licensed under terms that can be found in the LICENSE file
  * in the root directory of this software component.
  * If no LICENSE file comes with this software, it is provided AS-IS.
  ******************************************************************************
  */

#include "predictive_maintenance_model_data_params.h"


/**  Activations Section  ****************************************************/
ai_handle g_predictive_maintenance_model_activations_table[1 + 2] = {
  AI_HANDLE_PTR(AI_MAGIC_MARKER),
  AI_HANDLE_PTR(NULL),
  AI_HANDLE_PTR(AI_MAGIC_MARKER),
};




/**  Weights Section  ********************************************************/
AI_ALIGNED(32)
const ai_u64 s_predictive_maintenance_model_weights_array_u64[1651] = {
  0xbf6c8ff9bf6e9358U, 0xbf689d7bbf6a8c9aU, 0xbf64827dbf667f14U, 0xbf607bbfbf6216e0U,
  0xbf5c7501bf5e7860U, 0xbf586e43bf5a71a2U, 0xbf546785bf57202cU, 0xbf4fbd48bf526426U,
  0xbf4c5a09bf4e5d68U, 0xbf48534bbf49e53eU, 0xbf444c8dbf464fecU, 0xbf4045cfbf42492eU,
  0xbf3c3f11bf3e4270U, 0xbf383852bf3a3bb1U, 0xbf343194bf3634f3U, 0xbf302ad6bf322e35U,
  0xbf2cc9b1bf2e2777U, 0xbf281d5abf295503U, 0xbf23fc3fbf2619fbU, 0xbf200fdebf224815U,
  0xbf1c39dcbf1eb170U, 0xbf18384abf1a05c1U, 0xbf13fba4bf15ff03U, 0xbf0ff4e6bf11f845U,
  0xbf0c72b1bf0df187U, 0xbf07ac52bf0a4506U, 0xbf03e0acbf05c633U, 0xbf004e73bf021188U,
  0xbef8fc62befa5ec7U, 0xbef10630bef31590U, 0xbee8a0d8beeb6bfaU, 0xbede75cbbee457f1U,
  0xbed6e9eabedd5b83U, 0xbece7d07bed43c13U, 0xbec6bfc4becbd4f7U, 0xbebf3571bec3bdb8U,
  0xbeb76057bebaf676U, 0xbeaeaa9cbeb3ac80U, 0xbea79c36beab9d1bU, 0xbe9f019ebea3c562U,
  0xbe94ae70be9b0177U, 0xbe8ea582be9323efU, 0xbe86b722be8b3723U, 0xbe7dc386be836b62U,
  0xbe6e5084be74768bU, 0xbe5dae9ebe66e883U, 0xbe4c6bf2be568868U, 0xbe3e834dbe445ad5U,
  0xbe2f8b39be355dcbU, 0xbe1d8be8be264360U, 0xbe0d2171be16e3b5U, 0xbdf7237abe0454dfU,
  0xbdd3a321bde19755U, 0xbdbbb3eebdc56b60U, 0xbd972768bda54256U, 0xbd6daf6bbd88fd9fU,
  0xbd2d25e7bd4c2e09U, 0xbcec8a1dbd1453c9U, 0xbc3e0126bca2e2deU, 0x3b7c0b80bb8b6a72U,
  0x3c9f380b3c4306a5U, 0x3d132bde3ce259faU, 0x3d52eb0b3d391744U, 0x3d86aeec3d6f4717U,
  0x3dae320b3d97e00cU, 0x3dcc498f3dbc657cU, 0x3de914cb3ddc35c2U, 0x3e02fd3e3df70066U,
  0x3e1237e13e094c1bU, 0x3e239f9b3e1a5670U, 0x3e3591ff3e2e434aU, 0x3e44ea523e3c57b2U,
  0x3e579e983e4eef99U, 0x3e6325d33e5d57b3U, 0x3e78ac623e6c937bU, 0x3e81e4da3e7dad05U,
  0x3e8a6cbf3e864241U, 0x3e91be733e8ef02fU, 0x3e9b7bbf3e967965U, 0x3ea43abc3e9f7ea8U,
  0x3eab63773ea770bfU, 0x3eb2be903eaeca96U, 0x3eba69ea3eb6ebe1U, 0x3ec209d43ebf07d0U,
  0x3ecafdb83ec78943U, 0x3ed268f83ecef640U, 0x3edc63703ed760ffU, 0x3ee29ae53edee8fcU,
  0x3eebd8953ee69309U, 0x3ef4e9a13eede6a8U, 0x3efd2df93ef6e17cU, 0x3f0133db3efeea83U,
  0x3f065cc33f037e4eU, 0x3f09af0b3f081c78U, 0x3f0de1e73f0ba7c8U, 0x3f11f08d3f0fe5c8U,
  0x3f15ff183f141f84U, 0x3f1a93783f184193U, 0x3f1e04c73f1b8288U, 0x3f220b853f200390U,
  0x3f2612433f2416fbU, 0x3f2a19013f27919cU, 0x3f2e1fbf3f2ccbc3U, 0x3f329d743f310040U,
  0x3f362d3b3f3429dcU, 0x3f3a33f93f38309aU, 0x3f3e3ab73f3c3758U, 0x3f4213ac3f403e16U,
  0x3f4648333f4444d4U, 0x3f49c9493f484b92U, 0x3f4e55af3f4c5250U, 0x3f525c6d3f50590eU,
  0x3f56632b3f555abeU, 0x3f5a69e93f58668aU, 0x3f5e70a73f5c6d48U, 0x3f6277663f607407U,
  0x3f667e243f647ac5U, 0x3f6a84e23f688183U, 0x3f6e8ba03f6c8841U, 0x3f72925e3f708effU,
  0x3f76991c3f7495bdU, 0x3f7a9fda3f789c7bU, 0x3f7ea6983f7ca339U, 0x3f8190ba3f7fd48bU,
  0x3f835a0a3f82585aU, 0x3f85a36b3f845bb9U, 0x3f8760c83f865f18U, 0x3f8964273f886277U,
  0x737763625cb1469cU, 0x6465ad8692c8824eU, 0x8654737b89ce9068U, 0x7f5062775e72c696U,
  0x447e96427a6e4360U, 0x8b57ab885276b97eU, 0xa047827d5c5662aeU, 0x7a6579787141c27aU,
  0x6c7ea165b0c4737bU, 0x43c3764a59788b72U, 0x76884a746a767f8aU, 0xc0828f546c83ca97U,
  0x6d596583607d8780U, 0x8e7e490f7675676aU, 0x77958b4245984274U, 0x8470727b98a850bdU,
  0x76648c5e6f5b5d62U, 0xdb6d5f8778af8154U, 0x7a558b8c6fa08690U, 0x87b6ff6c827a9c4cU,
  0x86ce98738c48756dU, 0x7b68a45462567886U, 0x9f72756e530c529bU, 0x638e69557e8cb46bU,
  0x52369b7679654846U, 0x79c3a83e9291567fU, 0x6b43ba8c5267944eU, 0x9b713925777179a3U,
  0x7f79513f8688598cU, 0x44828a8db0ae854fU, 0x689d7378567c836fU, 0x347176785781899aU,
  0x768361af78908b38U, 0x79b3f76f82766180U, 0x767f702b7558736eU, 0x778580442b75797dU,
  0x4c8e9872b75b9a3bU, 0x726c798e637b41b3U, 0xbb7e6b6961b68c9fU, 0x8d9249c17aa94a9eU,
  0x83bcba6580796978U, 0x765c946583a1765bU, 0x69a18f54b797737dU, 0xa279a06c47a97d66U,
  0x88608ba768475648U, 0x5b4fab6e528ba39eU, 0xb070817577537e82U, 0x6faac676747c8a8bU,
  0x4a7280896b7b7894U, 0x796276783956ab7bU, 0x83799c738fad99a4U, 0x7f4e958271450662U,
  0x629f4477a19a64abU, 0x329a9737768285b9U, 0x699dd77e6c859f6fU, 0x9279415c89907c7cU,
  0x8c79848e5e8f4c78U, 0x4276617989834dbaU, 0x884e7693569bfb80U, 0x29974c6e88c6997aU,
  0xc0b18e5a6ea08137U, 0x6e6c285c9d746677U, 0xa73c82bd7142785dU, 0x776a7fa7f65ea073U,
  0x4b73aa7d99b3934aU, 0x994177734b938390U, 0x95993d77b5773158U, 0x798a628e7d9d6c33U,
  0x6d54044ca27bbe4dU, 0x9947909763477e75U, 0x6e93783b297d6c7bU, 0xba836372c4a6885bU,
  0x6b6e838678706672U, 0x12b24b9067ab5873U, 0x486c38b8778e715fU, 0x7dc8798248749c6dU,
  0x735ea16793947579U, 0x7c9179d7515c7075U, 0x8680996db0c87a6fU, 0x5b8d788889a23a75U,
  0x8d9a38798276460cU, 0x92b959c2808e8c40U, 0x7887a54fb29e8671U, 0x8b634a8a5f87a56bU,
  0x7e7379af9f5a9757U, 0x9d707e7db1757f4dU, 0x718a5e9e4a87ca98U, 0x218168779c449786U,
  0x26625c8a6f9e7631U, 0x4f6ccca26e84b469U, 0x635b556d9350828fU, 0x87697a7be065bd75U,
  0x9d787c9255224d90U, 0x54a69e7b754b0050U, 0x6d489d907167624dU, 0x6bbbab4a965d5c65U,
  0x8a595e797a739546U, 0xa157379ba4517465U, 0x746f705d334ead8bU, 0x5990667268326490U,
  0xb2507c9b9c6ca85dU, 0xba707c7b7f648a7dU, 0x9290934a6d517fb8U, 0x89aa85696686944fU,
  0x6390a4cf6c8c9e76U, 0x7b6e9265768e5087U, 0x46768d93a446718bU, 0x61797b9a7d8ba793U,
  0x8d7e7870486d7b8dU, 0xc695844c744b7679U, 0x7257035e98715f74U, 0x7e70470365847866U,
  0x3dd998fbbe5866deU, 0xbe960626be82e27eU, 0x3e174419bf06c9aaU, 0xbeb1640b3e30b57aU,
  0xbe842fd5be924b87U, 0xbe0af6abbea0b6d1U, 0xbdafce1abeae8352U, 0xbdea45e03c9a7b44U,
  0xbd07f1f5bdceb27aU, 0xbe30192cbd29e237U, 0xbde89dbd3e1f1064U, 0xbea2c7c9bcf1a559U,
  0xbe46d65cbe969ebaU, 0xba91aad3bda879edU, 0xbe3c8ccebe21b704U, 0x3d4458ccbe314f0bU,
  0x3d854d3dbe4cf5f0U, 0xbdf260dfbe8af557U, 0xbe10e2d7bd58d310U, 0xbe2f52483ce09440U,
  0xbe13054a3d06b16dU, 0xbe88dd67be8256bbU, 0xbe11620dbd4c1d4eU, 0xbeae1e9bbe6541eeU,
  0xbd949db1be4d2c80U, 0xbe487f24bceec558U, 0xbe3ca72ebe5a445dU, 0xbe625b0fbe8a1bdcU,
  0xbeb18fa5be8209a6U, 0xbc173e46bda29a51U, 0xbe39368cbe05fe86U, 0xbe41988b3da7eb36U,
  0xbe5c6354bd9065e9U, 0xbe67c8a6bd0f752eU, 0xbe697e62be2f584cU, 0xbe151f7abe656ef2U,
  0x3c2184263d6d687dU, 0x3db03306bda78e17U, 0xbd63a3e4be1a4d88U, 0xbe25c928be4f80f2U,
  0xbe98c9373d8365bbU, 0xbe9710e7bee08601U, 0xbe7a48c6be9152daU, 0xbeb563a9bdbf1aceU,
  0xbe97d5efbe322a1cU, 0xbdd7e5bfbe788be9U, 0xbd834d4cbe659c2fU, 0x3e2128adbd9adc50U,
  0xbd670a43be1d0db7U, 0xbe835f06be88e0a7U, 0xbdf8dfd63d987dbfU, 0xbed8857fbe7fb4e9U,
  0xbe84f086be34cf7dU, 0xbe0a43e1be1b6374U, 0xbe263793be8595dbU, 0xbe6ebcfdbdc81db6U,
  0xbe371b65be47a8c8U, 0xbe2829acbea70600U, 0xbe58c554bc697a2fU, 0xbdc37c49bdb68a96U,
  0xbe5a0c6bbe92403cU, 0xbea292df3e1d801fU, 0xbe9ef64ebe44aaa7U, 0xbddba7f6be5a20bbU,
  0xc0163c1dc0175308U, 0xc013dca7c0152532U, 0xc011e072c012f75dU, 0xc00fb29dc010c987U,
  0xc00d84c7c00e792cU, 0xc00b56f1c00c6ddcU, 0xc009291cc00a4007U, 0xc0075585c0081231U,
  0xc004cd71c005e45cU, 0xc0029f9bc003b686U, 0xc00071c6c00188b0U, 0xbffc87e0bffeb5b6U,
  0xbff82c35bffa5a0bU, 0xbff3d08abff5fe60U, 0xbfef74dfbff1a2b5U, 0xbfea6fddbfed4709U,
  0xbfe6bd89bfe98a38U, 0xbfe26408bfe48fb3U, 0xbfde0633bfe03408U, 0xbfd9aa87bfdbd85dU,
  0xbfd54edcbfd7f925U, 0xbfd1916dbfd32107U, 0xbfcc8aeebfcec55cU, 0xbfc85648bfca69b1U,
  0xbfc36934bfc59e62U, 0xbfbeb65cbfc262b4U, 0xbfbb8cb1bfbc4304U, 0xbfb73676bfb8fb04U,
  0xbfb240a2bfb5a02bU, 0xbfae1f11bfb06480U, 0xbfa9f432bfab9d0bU, 0xbfa59321bfa74aa0U,
  0xbfa18a89bfa2f4ebU, 0xbf9dea4abf9f819fU, 0xbf980d73bf9abf01U, 0xbf944f6fbf9669f7U,
  0xbf8fb443bf91d984U, 0xbf8afb3dbf8d3cf6U, 0xbf85fa3dbf884301U, 0xbf82f62bbf848657U,
  0xbf7c8d85bf8093c4U, 0xbf7268d1bf76ac16U, 0xbf6b133bbf6e3ea1U, 0xbf623667bf662d60U,
  0xbf5aae16bf5e5eebU, 0xbf5128bdbf5515b8U, 0xbf47e553bf4c0ec6U, 0xbf3fdda0bf43fe4dU,
  0xbf360b0dbf3aa621U, 0xbf2db3c8bf316ef1U, 0xbf24e849bf2990e7U, 0xbf1c2f52bf208f53U,
  0xbf13759cbf17fd5fU, 0xbf0ba8f6bf0f03f9U, 0xbf0342dcbf0803ceU, 0xbef50403befdadbeU,
  0xbee21e4dbeeb56c8U, 0xbece9ac0bed82096U, 0xbec014dbbec6db78U, 0xbead1babbeb591a4U,
  0xbe9cf61dbea47c1dU, 0xbe8b0aaabe93c66dU, 0xbe720deebe81ac6dU, 0xbe4f753ebe600e44U,
  0xbe2ae800be3dd6e6U, 0xbe06eda5be17e7a4U, 0xbdc7950fbde8f1edU, 0xbd82e28abda7d72eU,
  0xbcfb9446bd405a3bU, 0x3b79a375bc6ff4f0U, 0x3d10d9413c9d5d69U, 0x3d8f5fba3d56ae54U,
  0x3dd55bb73db1b3e6U, 0x3e0daf1f3df8ab07U, 0x3e2f10cd3e1d7394U, 0x3e524b8e3e41a82bU,
  0x3e76a1363e63c68cU, 0x3e8c90593e838e07U, 0x3e9e5aaf3e952f1aU, 0x3eaf5bbc3ea67a3dU,
  0x3ec0c2183eb7f7bfU, 0x3ed20d623ec92dbfU, 0x3ee1e9083eda8694U, 0x3ef2d3c43eea6c53U,
  0x3f03c7b63efbdb3bU, 0x3f0b47613f07faa4U, 0x3f1487863f0fa8ecU, 0x3f1d532f3f19222eU,
  0x3f2698f03f2216e7U, 0x3f2f63273f2b1604U, 0x3f377d593f32b964U, 0x3f40a12b3f3b6d76U,
  0x3f4844593f44c972U, 0x3f51b9fe3f4d32adU, 0x3f5b7c483f55df0bU, 0x3f6278023f5ee09cU,
  0x3f6b85f63f673797U, 0x3f7365023f6ea3d4U, 0x3f7be6623f7a0b20U, 0x3f834dff3f8098e0U,
  0x3f8804143f85618eU, 0x3f8bae743f88f038U, 0x3f9031d93f8dff78U, 0x3f941fdb3f925a29U,
  0x3f999ffa3f97b3ccU, 0x3f9e630b3f9bcc42U, 0x3fa15dc83f9fbffeU, 0x3fa5d84a3fa3ee67U,
  0x3fa987ef3fa813c2U, 0x3fae8fa03fac4636U, 0x3fb34bc13fb0bd76U, 0x3fb739933fb55346U,
  0x3fbba2a13fb98aeeU, 0x3fbf1b053fbea4e3U, 0x3fc3d16e3fc22c22U, 0x3fc936563fc687cdU,
  0x3fcd114e3fcae378U, 0x3fd16cf93fcf3da5U, 0x3fd5c8a43fd2cea1U, 0x3fdb23b43fd76667U,
  0x3fde67a73fdcff40U, 0x3fe31bb13fe0c659U, 0x3fe670ff3fe5097bU, 0x3feb92fc3fea72f6U,
  0x3ff01c5f3fedc0d1U, 0x3ff44a523ff21c7cU, 0x3ff8a5fd3ff67827U, 0x3ffd01a83ffa35daU,
  0x7a99309d925b6f96U, 0x8c8d7a42898d736eU, 0x283d9a669887619bU, 0x6b91426488874d8cU,
  0x967a8e928782898aU, 0x8d9e4593962d4788U, 0x8872a88789b18d93U, 0x9f7d966678935b8eU,
  0x608e95593349598dU, 0x8d41818c088b7684U, 0x928fa43d9268958aU, 0x897b5e927ca88146U,
  0x8b99957c8c8e928fU, 0x928d908d853f5a8dU, 0x8a9293878c6b8e70U, 0x828e948b8f8fac97U,
  0x8789889a88859293U, 0x8eb48e897cca596eU, 0x89847d8c89bb848aU, 0x8e8c908d82ae8b96U,
  0x958a808ea7919491U, 0x827b79668b8c8e98U, 0xca6288969b868c85U, 0x657e988b8e9a718bU,
  0x8097918b83867e98U, 0x7b8c588d718b8a86U, 0x838f667c8a72969bU, 0x7b76768f8b8e4e8eU,
  0xa38c6f8c7b889176U, 0x91a595a378908f9fU, 0x7590808ca590ac87U, 0x919a8abfbd918792U,
  0x9e566e7d8e9d838aU, 0x979084a0a08a93a9U, 0x98d670838890a263U, 0x627a968c9194a461U,
  0x88b78d729085878eU, 0x6690977a6b8b8c99U, 0x8b89879188757672U, 0x879a6b85707c9094U,
  0xaf8a986694b48f8dU, 0x91aa82796087819cU, 0x6c827788668d8177U, 0x8b8d9955878a9a8dU,
  0x848b6c6078768790U, 0x909088889a9e7d96U, 0x7f7e908e6973848fU, 0x7c8d8e9190898e91U,
  0x966b93856a908787U, 0xaa8d9d9e818a6161U, 0x93656e8f7d8e788bU, 0x896bab9494879c73U,
  0x803286768585868eU, 0x5d4c715f68979c93U, 0x9053939089688081U, 0x688c83a183937495U,
  0x878f76ae96877089U, 0x6ba15f87a77e9662U, 0x52874ca37651699aU, 0x915b5d7892845c95U,
  0x8f8963956d64848eU, 0x9e8f8ea590a47f90U, 0x5a806184918f967bU, 0x9995768b89918877U,
  0x8d7b7c869595857dU, 0x895e889aac64b2c0U, 0x939c938890549867U, 0x7f9387958f6b9873U,
  0x809f7682798b8c7eU, 0xa0a599ce93779384U, 0x6db98eb68c94916eU, 0x839c889683848ca9U,
  0x939fa366908d9080U, 0x8f93b37e80907d8fU, 0x8f86ba837789926fU, 0x979a9182908fc591U,
  0x71869774c57f929dU, 0x7f659b7d8e8a8272U, 0x8b83a59d728ca895U, 0x868589516b838e92U,
  0x7a9c81997c878a7cU, 0x878f8f8a8d8e6a4dU, 0x87508c8b8d8e8e96U, 0x9589629d878d7782U,
  0x90708a9486958f88U, 0x835e8a68948a868eU, 0x88618e6c7a9785a2U, 0x98636c898b958a57U,
  0x796d7e838f796a8dU, 0x828b5a6780938c97U, 0x87917a8694888195U, 0x5e718d808f8e568cU,
  0x95a159947a98916aU, 0x93834f6b559a99a1U, 0x778f846186858058U, 0x997e838a8399918fU,
  0x81958896998783a5U, 0x8fb981859dbb85a9U, 0x85899a8589a08f92U, 0xa091857bd186819dU,
  0x838c8e8b988a7a8bU, 0x9d997f8e8a7f819cU, 0xb1787fb3a5998f80U, 0x90889087878a83bfU,
  0x81c19f93888a8780U, 0x908a938790a67e7eU, 0xa68296939f91999fU, 0x938a84939483757eU,
  0xa390a29c9390839fU, 0x8bba8b929f86897eU, 0x90827db3818cc694U, 0x90a495bfb88086aeU,
  0x84938399b7708a9bU, 0x90aa768694c66d84U, 0x86817d8981b57a89U, 0x958c8770969f7ca2U,
  0x8f978c8bb6948683U, 0x93b0787d88777b92U, 0xb76c75c1c0949383U, 0x877f8d7b88926cafU,
  0x80a4a29587889494U, 0x877a768a7fba8688U, 0x97847f6f9676b48cU, 0x8884848c84696a73U,
  0xa688869580838899U, 0x8bb187a690768c97U, 0x8e857ca9ad89a37eU, 0x8391aac7b68573a2U,
  0x9186877d54844791U, 0x93708f8787639997U, 0x8966925c926d8d9cU, 0x8f7f848fa0619194U,
  0x5d768e9b786f7878U, 0x9894839f8d8f8d93U, 0x678690986b8b7f6eU, 0x9b89758e998f8fa4U,
  0x839c68998a6d9262U, 0x81948f6a9061447bU, 0x957d98848e987194U, 0x907f8b7b8392918fU,
  0x6f7ba797a0986a9dU, 0x7f8a7d8098898e4fU, 0x8b656b895da2948fU, 0x9e92525b69568f93U,
  0xa57dc37e7b916b86U, 0x8e8c6adf898f5ab3U, 0xf6cf899a8d8ea685U, 0x9b6f98b18d8cbd8aU,
  0x8abc8d8e898b8388U, 0x8b7cbd878ad99889U, 0x8c5b678b8f5c7a81U, 0x8a988076898fad89U,
  0xa68d6cccecacad90U, 0x7cec7f79fe925a9bU, 0x8a7a66d08ea78183U, 0x89a4b687a97557abU,
  0x8a83627c8786838cU, 0x6f8b838f83e3a18dU, 0x8d89788f8f928d9dU, 0x988c7d8c8c7c7283U,
  0x94737a8366644178U, 0x808e778f9e868a9cU, 0x95758d58788e9d79U, 0x8264838b9093ab8aU,
  0x7e9c918394a75d78U, 0x9585959488979588U, 0x8d7b8d948b867670U, 0x878b517d84a88d95U,
  0x878976838b889c60U, 0xa2aa9957878148a5U, 0x91678a9f869f6d81U, 0x8f93936e91837c89U,
  0x727988868e8a5b86U, 0x5c9275948ea29589U, 0x80658395798687a2U, 0x9f86759194548974U,
  0x83938d9d7a8a8892U, 0x98ae888692c06b88U, 0x877b888d8f9e8eb4U, 0xd28c8085b5a39da5U,
  0x9279a0bb9b858b8dU, 0x836f8d7391878bbaU, 0xb0648a8b8e918d92U, 0xa17e878c8bb58294U,
  0x8a9c79aa918a858eU, 0x8896728b8e898684U, 0x898f7789a58e7ec2U, 0x7f818a85a68a6489U,
  0xa3868cc778918a83U, 0x88a8949b8a9b9499U, 0x858980719083ae8cU, 0xb8ae83afa18686a1U,
  0xa69dd4919bafb38eU, 0x828b9aa37e8d9669U, 0x9ad390b085887dabU, 0x8c9ab7838a855f88U,
  0x8f9a858f8292998eU, 0x8b837d8494aeb087U, 0x8d92866589769694U, 0x96a5a8b7ae6aac67U,
  0xd17897a3a0da7b91U, 0x915d8aa7d38fc483U, 0x948b759e8d90988dU, 0x848492975d819c8fU,
  0x8f99959985a8947bU, 0x988da5837c616c8aU, 0x7c8d918d92a57f65U, 0x6162938e8a9a7f8bU,
  0x9b8f93726c8f8b77U, 0x996992918460777fU, 0x8d5e8388965b9199U, 0x9f60789b9497a38aU,
  0x954d889b7f7d9389U, 0x876f8883838b919dU, 0x50678e7a6a876694U, 0x9c71638f8ea5888dU,
  0x849464998e828d87U, 0x7ba9815994548776U, 0x8b90818b87986e9dU, 0x87868d639c956394U,
  0x6f72759d8c928f86U, 0x6d70868181a29076U, 0x7c8a7c4180839f8eU, 0xa6a26c4a52879180U,
  0x7e947a9a9d778693U, 0x7ba28a8297b7708eU, 0x7b91868c9fa67681U, 0x6c8f8a7c9f93938eU,
  0x959a947e9f96828aU, 0x979d818797737791U, 0xaf7a6ca8a2729389U, 0x6e988a83808c74a4U,
  0x88a5ac83838b8697U, 0x8983708767a07b8bU, 0x999a7878947ab58fU, 0x7f837b8c7e757e7aU,
  0xa98b847a85827f90U, 0x8bab8e9991797c89U, 0x988880afa48e978dU, 0x83a29dbcbb7b6ca0U,
  0x9a8b91808b8d899aU, 0x86668b8c8b62ab88U, 0x888e939388629663U, 0x4e91918259718272U,
  0x8696745b6f8c938dU, 0x93988e968b978d5eU, 0x5fa38d8a939d9480U, 0x7f9a8d91856f8d80U,
  0x936d955d8e95968cU, 0x9082a7928f998f89U, 0x928da88973838658U, 0x95858d9a7c88ae91U,
  0x7d8a983996868b8bU, 0x8b6e907d847c8488U, 0x918e99938b8d7181U, 0x70639a5d65938b86U,
  0xa78f8b899093997eU, 0x95648f9a895ac6a2U, 0x8992998992649a84U, 0x808b84a08064967fU,
  0x878b6c886f889c89U, 0x9a9c9c9d7d949087U, 0x60b7927d7a969782U, 0x7f8b93908b9096a0U,
  0x8891907782978e7bU, 0x889ea7918d827f83U, 0x9f86978d71968e71U, 0x93828e949095afa1U,
  0x89959d77aa908b9bU, 0x8f608e75889b897bU, 0x88868b8a7f84849aU, 0x969084505c828b76U,
  0x8b888771788a8b70U, 0x936b878a7a5b8087U, 0x8a6c8c908d5f8e93U, 0xa05f67938ba19f80U,
  0x8e4e929088808e86U, 0x815e9c748f988f99U, 0x4f7295736e835a9dU, 0x976565918fa38882U,
  0x8a9a6b8889898c88U, 0x8a9685599a529177U, 0x848b69848b95719aU, 0x80828b69ab8e6e8fU,
  0x6d6d529b7d93917aU, 0x696374807fac9384U, 0x8096753f7e8d8b92U, 0xada26d4f58879178U,
  0xb8524f8864a67b83U, 0x8b8e887d9784b6beU, 0x89a283806f899f74U, 0x8866acbb8b909877U,
  0x7590937590a07d7aU, 0x7f789f9e6d928d92U, 0x879a8a947e7a746eU, 0x9298607f69928f96U,
  0xcd93517f81bfad78U, 0x9cb9ba76678375a2U, 0x8a7b898c7a956583U, 0x8c9d9c5e9a8c9e99U,
  0x7c7d7d8293828899U, 0x6a917a7f909f928dU, 0x81829d8770708b94U, 0x8d8f5c8c8b74897bU,
  0x9d8c7b859b8b8d94U, 0x884b8c8a8d53ac95U, 0x8da099908953916bU, 0x3c8d848f5879786eU,
  0x809277617585878bU, 0x8da48dab828f8f70U, 0x58a88d8d97919184U, 0x7b9d908e8d619481U,
  0x976b99628d938a88U, 0x997f9c8d87af9198U, 0x928dae89827f924aU, 0x9a928c947987aa8bU,
  0x6d87994397868a99U, 0x9661918b8778847fU, 0x9b87a1b08d8b6a8dU, 0x5e62924666968f81U,
  0x987da18449728272U, 0x9c897eab88867295U, 0xb2748a7d888e9a6dU, 0x9d556c898a8aad88U,
  0x918a888e8a77737fU, 0x87639b8f8aa4888cU, 0x8d6d818b84706c95U, 0x8072588282b2a58bU,
  0x7f8c4ec1a0849380U, 0x7fbc835ebd777d9fU, 0x8b726c9886ac5882U, 0x96909d73b1847a80U,
  0x736d6d768f847f8fU, 0x528a70988ab7b28dU, 0x837e808f829f918fU, 0xc28e518b8075806fU,
  0xb2799da58da78b93U, 0x998ba6a74b8a6342U, 0xac818f867d8a5fa7U, 0x9684b2a7916ba08dU,
  0x815e69886c8488a1U, 0x858948827eb8bb92U, 0x8f69838f86757e72U, 0x658aaab09d866c8eU,
  0xbd9c87a699af508bU, 0x93ac67a4b28b923bU, 0x8a8f5bb08b568a93U, 0x9152518f8c8872a7U,
  0x928279998b698186U, 0x858c999c839b8061U, 0x757e85888f929e73U, 0x92a086878f8a7e8fU,
  0xa57891a881a97d9fU, 0x8f88959b65925a79U, 0x8ea48284878b579cU, 0x9486a3a4885ea08cU,
  0x88727988618a8996U, 0x81985e7a86a78b8aU, 0x8e656889867a827aU, 0x8584a4bf9b7b7083U,
  0xae95889998aa8385U, 0x88c35da0958d745fU, 0x7e876a878d5b8a93U, 0x8c856b987d7461a0U,
  0x978284a284717f8bU, 0xa28ba59298a49078U, 0x8c8b7b8b93919895U, 0x78977f8b908e6a96U,
  0xa77b81819b978d8fU, 0x6d8f8e888f909f99U, 0x8de76f917e8d9760U, 0x4a7cae908a8d8f6fU,
  0x86cd955191978d96U, 0x709798867b959169U, 0x92a48f7c8c6e8971U, 0x94aa7c8891798f73U,
  0xa676a76881b1938cU, 0x98af838d7c8c949fU, 0x748b7c8f71839769U, 0x888a9a677a87a28bU,
  0x88ae833a837c9397U, 0xa486a2948f937f96U, 0x9891918e7e7c7a83U, 0x6e768f8f97948384U,
  0x887ea57287958b8fU, 0x5f8a7c66938c8f86U, 0x7975778a678aab58U, 0xa19ab96c8a966255U,
  0x818e9267988a828aU, 0x7b6cb77c57a58188U, 0x909a72959c779c8dU, 0x9d9b9782975ba37eU,
  0x7d618a837d879a8eU, 0x8b6b9590ad898b87U, 0x7d80919152a49280U, 0x827ea5676d7e8b6eU,
  0x959c9b8060998f84U, 0xa591928b8a648b91U, 0x5b847c9d9c897769U, 0x60538d8e869d7e77U,
  0xaa83958e527a8095U, 0x988e658b6a936f70U, 0x96817d8a7b9145a3U, 0x9b7c8f998f689e8bU,
  0x8670848d828f7a8dU, 0x6c7a4a91829a7690U, 0x8e6546917e7f7e84U, 0x848f857182946583U,
  0xa78b61b9969d7d82U, 0x8ab57292a3958d49U, 0x6c606c8f8b435899U, 0x92775a94a358676aU,
  0x97837d9f8d65738dU, 0x9c8a999890b08e6bU, 0x868e828485848e87U, 0x959e598c8f8b4a92U,
  0x8b95a168817a8795U, 0x7a8a678285909dc3U, 0x8bcc868f8e8a9c98U, 0x9189c78e8c88a49dU,
  0x8ad38b928a9a778bU, 0x798fab889c946484U, 0x8a89778e9a848e95U, 0x8ca1867093928580U,
  0x998a71a089b0bf76U, 0x84c39881a69f8384U, 0x7d6b75959c917d85U, 0x91a19d9a9582796aU,
  0x9c868885829e7a7eU, 0x8c86a4828da59e84U, 0xac8e95968b888392U, 0x9a7a7a8e92898588U,
  0xbd6a718b5d8d4681U, 0x8f8a9284838ba8a7U, 0x8c587f636b8b9980U, 0x9166b0969190b384U,
  0x7d7b8d898699668aU, 0x7b65a29870a0968fU, 0x908990857e726d82U, 0x9e866e9179a79892U,
  0xbd8e539285ce9873U, 0xa1ab9776968d5585U, 0x7b737b9587946f9aU, 0x9c8a9271a88f9295U,
  0x847b7c94886e7092U, 0x7e8e6f8e96ad8a7fU, 0x81729085648086a7U, 0xa18d5f8b8f468c77U,
  0x97908d7b928f919bU, 0x7c888a898d8dae94U, 0x90c087928484895fU, 0x58a2ac8a85858560U,
  0x86ca7e5a82879091U, 0x8a9a829c85869055U, 0x8bae9279917d9e7bU, 0x8a9e87878b628e7aU,
  0x9c6b9c668ea28491U, 0x9284aa88848d90a1U, 0x808d918b6685974eU, 0x8e8a927f798dad8fU,
  0x8bb392557e968f90U, 0xa281ac83827a8798U, 0x91938fa38f89697eU, 0x5a4c8f8987918880U,
  0x998d929182a37982U, 0x9e6e8881836ca996U, 0x7d869489865c839aU, 0x8e91849d8a6f988cU,
  0x68908383748a888fU, 0x9d8f9ab782878886U, 0x64aa93a9669c978cU, 0x91869a878d92899eU,
  0x87958ca0808c986aU, 0x8f98a7939984768dU, 0x9180a88695928189U, 0x978997a79790a195U,
  0x748bae8db88c81acU, 0x95888d7894979179U, 0x9a89907a7395879aU, 0x8c908d69707a8c8eU,
  0x8d98a87289b48e8cU, 0x7a897ef09a819f94U, 0xf5d69d9c998a9b86U, 0x747a84c88286b192U,
  0x90b98a8b87759087U, 0x97938e7f9db5a888U, 0x888a7c87897b8493U, 0x8b947f798197b993U,
  0x82907aa7f09b888dU, 0x8cf99881a886709fU, 0x8c8e7fcc94bd8a73U, 0x8aa6c1979f80a1f2U,
  0x708c737292919089U, 0x708b8c9b8ad6a88aU, 0x9491748c8ea688a6U, 0x958d8f86878c7a90U,
  0x918b87b0ac8188a6U, 0x82b2898289ba9383U, 0x87ae8d8581aa837fU, 0x72a79d86908c7d93U,
  0x81bc9687948c8780U, 0x84ad7e918d8d888fU, 0xc89590a7b5829489U, 0x898e9d869081929eU,
  0x9b93aa70898a8c99U, 0x987e80a079c88d98U, 0x8b8993928e7aa88eU, 0x8c8c7da2838c9585U,
  0xa7a3957c8e7488a1U, 0xa9af9b8a897f8a8dU, 0x948da4c9a57d958aU, 0x7390a7b6b78d89a5U,
  0x7e918c969e8976a4U, 0x8dbb868093b58c9fU, 0x8282928487bb7fa0U, 0x92968589cb848ea4U,
  0x8b8f8d92959d718eU, 0x99a486948f748695U, 0xbb847bb6b1908f7dU, 0x868b8381869389b0U,
  0x83c19ca27f8e8f8fU, 0x8b8a87918ea97983U, 0x9b838a8798899ba4U, 0x8284868f837b8484U,
  0x9e8a90a5939883a6U, 0x8abd868c9a817f8dU, 0x897f8ab98880b494U, 0x909a9bbeb67682b0U,
  0xa267467c597d507eU, 0x7f8a56b19f8f7fb8U, 0xaeb47d837e8ebd67U, 0x676376739190a791U,
  0x9db18d8090925d82U, 0x8b67a8878e986386U, 0x8c6f6f898561806eU, 0x848851648197978cU,
  0x78836571a38da87bU, 0x95ae7b504d7b4ba8U, 0x8d5978948b9d5e77U, 0x8aa6837191717c64U,
  0x6a806d6a84896696U, 0x6387798f8c9e9d8eU, 0x9482798d88a3859eU, 0xa6825f8d8f5b6f83U,
  0x9a8489877aa28673U, 0x985ca6958a5dac8fU, 0x8a99908e885c8e8eU, 0x7c8e91aa806c9b85U,
  0x7f8e748c687f9f8fU, 0xa1839598938b9a8eU, 0x68a298716a867584U, 0x8f96939d8b848e8fU,
  0x948d8d9390a08887U, 0x8eb4a18c89718586U, 0x99989487729a807aU, 0x86829d849ca4aaaaU,
  0x7b8b7f8b8d958b81U, 0x7865898c84ac8f70U, 0x81908e6c7d828390U, 0x8ea0775e6888a67cU,
  0xb27d81899f968c9eU, 0x6f8e868b97929596U, 0x8ce2829771879b52U, 0x3da0ab8f82908772U,
  0x90d982428596968dU, 0x7ba195827c95975aU, 0x8a998b829182997eU, 0x8da4908d916e927cU,
  0xad7ea25690ac8e8cU, 0x84918e8d79948baaU, 0x8396949576879a54U, 0x8c8a9f836d829d98U,
  0x8ca48a377a8e9b90U, 0x95859b7a8b7c8e92U, 0x909d978f8183807cU, 0x6676a28b8c998c90U,
  0x818a86977185619aU, 0x988b917d959a929dU, 0x7e76926e948b8b9aU, 0xa28e8a8eb470889bU,
  0x6b8d9097817d6d91U, 0x978d8d9988748e9cU, 0x938b8c998c8b877dU, 0x978c92908e938ba5U,
  0x8bb07aa9848c8d72U, 0x7e95908a8b735a85U, 0x9e7d9885979a89a2U, 0x85928f8d858a8b8cU,
  0x878ea6989c8c779cU, 0x8b908b8a94868266U, 0x82686d9b6982aa9eU, 0xa19772a2836088a0U,
  0xa794e5859ec2958bU, 0x938ca8b576928e3cU, 0xabd891bf868a71aaU, 0x90a0a88f86845789U,
  0x8d8e8481828d9e92U, 0x8c9e5c7e8fbbc28cU, 0x8aa67f798b658d89U, 0x8689a0a7a55ea277U,
  0xc88593b2b0d47192U, 0x8c6b84a9ea8db683U, 0x938f67b68d7d9888U, 0x876b89985c809896U,
  0x8e958ca0839a9489U, 0xa48cb9847b686989U, 0x769280898ca48057U, 0x557b948c8f8f7f8fU,
  0x928782817f789072U, 0x7c8b8b8756849d78U, 0x838893858f918883U, 0x4b9f8787808c5396U,
  0x89958983898d8a47U, 0x90967c9999849390U, 0x8da790958d6e9c6fU, 0x7ba7758f8f808b89U,
  0xa28ea35f84918288U, 0x9e599564758e9f57U, 0x9983718490818687U, 0x6d6f81a88091b68fU,
  0x88757c809082898cU, 0x918c897c64527d48U, 0x9e86ae9688918753U, 0x828a888e8c918b96U,
  0xae5f3e92638e5d79U, 0x908a7897938d99b1U, 0x9ab085827d8b9f67U, 0x72619aac9091b290U,
  0x83b8907e8d936d86U, 0x8b72b8978d938b8bU, 0x8a827f8b82627176U, 0x8c9b637783a3958bU,
  0xb98d686394beac7cU, 0xadc38d604b8d479eU, 0x8f686f888c96687aU, 0x93a39d72a18b839eU,
  0x878a646d9887888bU, 0x708c7b938aa8a58fU, 0x94889d927d928b9fU, 0x9d8b6f8b8d618876U,
  0x95a29b799f849f8aU, 0x8e7b91987576885dU, 0x8c8f90a08a5c8c84U, 0x87798a8e5a947771U,
  0xa88c7b8e8285a18bU, 0x8c6881827b92908dU, 0x7d9c8c5b858087a1U, 0x80a4888da6858f56U,
  0x9b62a986939c74aaU, 0x8b798c839596c08aU, 0x8a97699079899f93U, 0x7e768b7e818aa188U,
  0x65836a92879d9f77U, 0x7d6b9575708a8db2U, 0x6d999f7cb2807b6dU, 0x7b6dae7d7dbb8d6fU,
  0x739c2b9792647993U, 0x808e8c488a8a7974U, 0x2838926998876991U, 0x7293516785895391U,
  0x8a7890928b828b92U, 0x8ca0628f8f383a89U, 0x8a8cb3908bb2958eU, 0x9b8b9373737d5b8cU,
  0x5892905b2d416d88U, 0x8f448091038d8184U, 0x968e9f4791699582U, 0x8d7c549d7cbc7d43U,
  0x8a959a8b9387928bU, 0x978c8b908a4a518aU, 0x8d8d918b9168927bU, 0x88918d8c8c8daa92U,
  0xad848f958e968893U, 0x7888918d8f929b87U, 0x8ef9778f8c89915aU, 0x3e95bf93858f7992U,
  0x88e08c6992a18e95U, 0x72a69998a6958e7cU, 0x93ab87888a628a7fU, 0x869e7e92905c9074U,
  0xa16a9a6092b78d88U, 0x8e8da88080958796U, 0x728c828b92819a5eU, 0x8ea2a37d6186ac8dU,
  0x899d7a4086a1939bU, 0x9c8ab383817e7783U, 0x9e908f9b83797677U, 0x51688a86908c8687U,
  0x757ca0838e989783U, 0x948aa698468f5e4cU, 0x9c768a9d928a79a2U, 0x9b7d8f927f6c8f8fU,
  0x8b5d538b578497c6U, 0x8e75667a94afb78eU, 0x8b5b917b8a82667fU, 0x757eb0989282887bU,
  0x798f91a79b8d5c8eU, 0x73996f93a3899349U, 0x8b8f4fb0986d9e8bU, 0x81667291858a6296U,
  0x7c905b8a81908e84U, 0x838996a7848d8c59U, 0x6a8a7f9198a5907fU, 0x819198868d95868bU,
  0x9b897c9b8e95849fU, 0x808795877586976aU, 0x89b78c947d877b59U, 0x569ebb8e84807680U,
  0x83ae705172939388U, 0x88ae849287919466U, 0x8ea78b76956aa382U, 0x96a5ae988570926eU,
  0xb370a15487a8818bU, 0x998998a3818b8b9aU, 0x8b94889875899a6eU, 0x888591936585b195U,
  0x96c0945f7b8d8498U, 0xad88a976817e7088U, 0x958d90908c8b767cU, 0x6c65978b8f8e8981U,
  0x8d6f9f8789957191U, 0xb5847fdd80836484U, 0xda69868797898184U, 0xaf7290a69481d185U,
  0x82407f848a7c8894U, 0x877a8c598fd5a78fU, 0x87587c8f8f8b717eU, 0x817992918fa5ab8fU,
  0x8c9380bbd17a8f8eU, 0x75ff7a95ef877060U, 0x828770d1898d7c8eU, 0x908e8c7eb28154a0U,
  0x857e7495767c7d85U, 0x778f7a948ff3b77bU, 0x7e87708b928d92a5U, 0x9b97858a828b848fU,
  0x708f90908386907cU, 0x88868682738e6c73U, 0x844a9697958b939eU, 0xaa887598798e718dU,
  0x857290a08e959370U, 0x8b828c688d7a828bU, 0x836490878f9583a3U, 0x98766d8e93968785U,
  0x7a878a95857c848aU, 0x8c786a5b818b9674U, 0x95957e85897f888fU, 0x3e5b898b8f965389U,
  0x90816f996a8f8f85U, 0x82855b734a88927cU, 0x8b93918d83828859U, 0x89898f8d908e9191U,
  0x6d9d239791547896U, 0x7d8c823c818b736eU, 0x20319366988a6a9bU, 0x6e954b60878b4f94U,
  0x94768b8a8a8b9389U, 0x939c589393303d85U, 0x8a81ae8d8abe918aU, 0x987f937e7b825c8fU,
  0x4d948f50343b6d90U, 0x903a829100947285U, 0x958aa23d8f6e948bU, 0x8477599f7cbb8044U,
  0x8a948f8b908f8f85U, 0x9987878e893f5a89U, 0x9091948b946b907cU, 0x7f94948a8b8bb395U,
  0x978a7c6388869189U, 0x829191886084a37cU, 0x90948f8a8f8f8b7dU, 0x3d847a758d8f618eU,
  0x7c9b7a7c8d828864U, 0x968e7ca79a83907bU, 0x8bb38d83986ca075U, 0x77a67f8c8a618d92U,
  0x95889a6992947386U, 0x9a4e986e6e908a73U, 0x958b768392808b77U, 0x806e8ab36a8bb88cU,
  0x927a67589a888c91U, 0x899d927963598252U, 0xa6869fa488847f72U, 0x587a879f808d89a5U,
  0x7d877c8aa9828598U, 0x8ab3878ba2ca7492U, 0x7e90778f86b9838dU, 0x80888f7d9f9a7f94U,
  0x98959990a6958486U, 0x9397887e907e7b9eU, 0xbd7165b5ba798684U, 0x7e8d907f879375a5U,
  0x85a4978a7c8b8c91U, 0x87886b9480a98298U, 0xa38e827d9978ae8eU, 0x8882688e7d7c7277U,
  0x9c897d8b8c83859dU, 0x8aaf8ea0837f8485U, 0x909a84a7977fa994U, 0x7d9fafc6ab8160a3U,
  0x97888791818b8067U, 0x9c83a4838785bd8bU, 0x898b9c8d956c967dU, 0x8f8c7eaa9588978aU,
  0x7a927d918f74979eU, 0x89909da882808983U, 0x8ca9a89481a0877cU, 0x879095a080828c8aU,
  0x7e81878b9a82997fU, 0x7589a6a186808787U, 0x908495898581858aU, 0x8d928e878facc799U,
  0x9e82878792868790U, 0x8d81828788988872U, 0x8d82938e8e8b8392U, 0x917e7d7f8d80b475U,
  0x8a8f959eaf83a9a3U, 0x8baf7a7ba0ac8e91U, 0x84b1889a7cb8917eU, 0x80a4888783b17c8bU,
  0x8bb6a186ab8d9380U, 0x869e968d8a83728dU, 0xb682879ebd91aaabU, 0x95929c768b788e95U,
  0x8d87be7e899b8d91U, 0x8d7682868cada3a7U, 0x7f8392808f8ab185U, 0x8b8b8e947c8a7c87U,
  0x9d84898685768c8dU, 0x99af8a93878582b6U, 0x969180bcbd888184U, 0x6d84c0adb49b8aadU,
  0xb65559826e71497cU, 0x8f89528f928799a2U, 0x98877b4b5b8baf6eU, 0x716ba48e8995a86aU,
  0x76a3907592965c82U, 0x837aab975ea87c91U, 0x8b8077918f6e7078U, 0x9695616871979993U,
  0xa08b678889a3a481U, 0xa8b09673658454a6U, 0x8c6477b274a0778aU, 0x908a985e8c739584U,
  0x7f8176828f7d6491U, 0x6f9078968f996790U, 0x815b908e81628997U, 0x9688718e8e5f7879U,
  0x869190808a7f926eU, 0x7c8299856f87817dU, 0x7f598a8e8a82ab88U, 0x9287769168867c8cU,
  0x8282878f83978761U, 0x8c8c997f8e798687U, 0x888ea0968c858f9bU, 0x8d81658d9d8e8d84U,
  0x7895848e7f7e9485U, 0x9b6b865c8e85a764U, 0x938c677e89798387U, 0x616890a28ca1877cU,
  0x85745b9c8b968371U, 0x8188718a5b83885eU, 0x90908e928983865bU, 0x958a838488a19f89U,
  0x908d6d92927f8b7fU, 0x7d858c827688a8a1U, 0x8375967e9191928dU, 0x5792778a7c836593U,
  0x86898c898a90894bU, 0x8fa08fb79b749293U, 0x88c4909597ad9062U, 0x7ca9888f8f8d8b8bU,
  0x8d879055856f9d89U, 0x973dc576518b8868U, 0x8b88b27d9e818a92U, 0x5f7e87a08592be90U,
  0x847ca2859d8a8795U, 0x9d908c75624e715bU, 0x908f9f94886b867bU, 0x929490858d8d9391U,
  0x838a9092ac7180a8U, 0x8cb871859cb76e9fU, 0x80898b7f8aaf7994U, 0xa1908965af8589a3U,
  0x8e8b9a9ea289788eU, 0x979f798b8889789bU, 0xb97d7ac5c38f8e87U, 0x9e8c987b8c9480b5U,
  0x84aa9498818c8d83U, 0x8984838f91ae7f86U, 0x9e7b9a8d9986a497U, 0x93967d8990836574U,
  0xa089969d9d847e9fU, 0x83b88d97a7818f86U, 0x907693a8a38fa083U, 0x9595a0bcbb7b889dU,
  0x918ba98668868a88U, 0xb0878b9974866479U, 0x8e6c82978a888b9eU, 0xcd868bac9079bb83U,
  0x7e40798f7f7c8490U, 0x78559160829f9393U, 0x8a5d8a948587839fU, 0x8a77999b99a5a395U,
  0x899762de9b779c8eU, 0x74ca7ba1bf8a935cU, 0x74876cb385866b9fU, 0x8b87928bc38b5e8aU,
  0x926b7daf7b777f72U, 0x8b89878e8ccfaa79U, 0x798a7b81929199a3U, 0xa8aa7889868b8f86U,
  0x9592838a8e939578U, 0x915e988e7d628e80U, 0x909790958364a578U, 0x72918c9a608c9a76U,
  0x828a78856888908dU, 0x8d828684798e917eU, 0x6794965c6b8a8297U, 0x8e918b928b8b8f53U,
  0x8a4391888d8b828cU, 0x978f8784877f968bU, 0x8286878970847e80U, 0x7e8292878f96a18dU,
  0x7a957f89869b9560U, 0x8560898c809a8a89U, 0x769d9c699e895383U, 0x7d7881626b959673U,
  0x91958d7a8e78b066U, 0x8b828a786e869269U, 0x7d65928b91869290U, 0x8c776d89788b4a8fU,
  0x818f8e8e928d935aU, 0x8c918e89967f818fU, 0x8b9ca08a8981809dU, 0x93834586a37b967eU,
  0x898ca07e7c897c84U, 0x9b558e528f8fb866U, 0x968565778f8f8c8dU, 0x58628e8e7a969786U,
  0x836c57988e938e7aU, 0x7c8669785e6d8274U, 0x8b91a0968e788a44U, 0x837f8b868baa9882U,
  0x9986bc8b76aea77dU, 0x778b6cba96878eadU, 0xb5f190a7978bae6cU, 0x5a9298998e997e8bU,
  0x92ee957e908f8c88U, 0x928ebf849ba86f82U, 0x8b91708a8d7d8777U, 0x8aa98563966ca78cU,
  0xba887d74aae0b682U, 0xa1a29281a28d889dU, 0x927b878990b18066U, 0x82adb5866161959aU,
  0x88957e5691a9938bU, 0x818d95828488958bU, 0x9e999595919b8797U, 0x60787391848a6488U,
  0x6f9a2f9893647992U, 0x828a93378b897671U, 0x1f4394619c8c719eU, 0x6692416189894f8dU,
  0x95668b959284898cU, 0x97985d978e2f4189U, 0x8c86aa898ab0958eU, 0x987e94837b895b8dU,
  0x5495984c3b476e8bU, 0x903d86940f8c6f87U, 0x9093a13994689789U, 0x8580589a82a78842U,
  0x88979c89908d8f87U, 0x988b8e9183355d8eU, 0x8e9098858f6a8d76U, 0x898f8b8d898ea790U,
  0x8f887b9ba3909694U, 0x7a92878f8896878aU, 0x87aa91958c9d9264U, 0x32a191879c827e85U,
  0x74ab8b57968b8f88U, 0x88a48c8a82868066U, 0xa49190a1a595aa7aU, 0x7b8f998287639192U,
  0x9a8ca65f86889a95U, 0x82828c9b79b593a3U, 0x858eaa808d87a364U, 0x8e908ca2778ca389U,
  0xa3a198418174848bU, 0xa69193a68e768483U, 0x9d899caf9b8e808cU, 0x6886a79c8a8f8f8eU,
  0x8199c68ba1b28d9cU, 0x958caea1598e8b3fU, 0xa5948f9c7e886f9eU, 0x8d97aa94807b878aU,
  0x8f4b828a7e7f8e97U, 0x91936f5c89cbba8cU, 0x869380768d759893U, 0x837aa9aba77a8785U,
  0xb28f92a69ea25791U, 0x838a73bcd28c9a6fU, 0x9b9a55bc8a81a187U, 0x885575a6768794a4U,
  0x898f609d7a8c918aU, 0x98909e857b877b93U, 0x61897b83959d8a60U, 0x828f9b8b8b927f98U,
  0x858766a78c9a7084U, 0x9f8d9d898b8ca291U, 0x8c3f986d8a8b8794U, 0x95945f8a9d808a90U,
  0x4c68868a844d8191U, 0x899d8ab8926a8480U, 0x8b7d9895899d866fU, 0x8a80a09485769099U,
  0x6b8b8b888d508b74U, 0x4b889ca371885f7bU, 0x8c85a07b958c9c86U, 0x8e928d9389998293U,
  0x9182ac85a6917aa3U, 0x8f8c848889938272U, 0x8273749a8e719996U, 0x808a96948e5f978cU,
  0x3ef9a2603db3a855U, 0x3e1f785dbcb99a65U, 0x3e83c36fbe60760aU, 0x3eae4b8dbbf02aefU,
  0x3d0aeea2be820866U, 0x3e9e8e903dd172f7U, 0x3e5e4ae0be7f50b8U, 0xbe68d0023edd737cU,
  0x3e80890fbe3e249aU, 0xbe25abb33df957e1U, 0xbd8d6c103e3746baU, 0xbddfd120be24d2c4U,
  0xbd9ae926bce4ecfeU, 0x3e24007cbe96c24dU, 0xbe86736dbe2f9048U, 0x3e6664efbdc1743fU,
  0x3e0c1a803ddcb239U, 0xbe3624b63d8cca67U, 0xbe638d12be4fa169U, 0x3de164c03df82ff2U,
  0x3db9a1573e3c28a4U, 0xbdd74092bdfe6f43U, 0x3c160768be327ea7U, 0x3db4f3863ea23386U,
  0x3ea201303dad796dU, 0x3eab75353e3f6e29U, 0x3e80f1a93e4644cbU, 0x3e0b55d53ddc1887U,
  0x3e417d7b3d855162U, 0xbdd7e8403e910586U, 0x3de997333d9ce8c8U, 0x3d2ca9e5be2ca7f1U,
  0xbfc0d52ebf811d47U, 0xbecc44dfbe53b807U, 0xbf3ddd8c3e90a4c7U, 0xbf8d0e3c3e571222U,
  0x3e9fc5c53f83fa96U, 0x3e8519b43f17cd95U, 0x3ed2676fbf3c9eaaU, 0x3e583386bfecbfa5U,
  0x3f0199e03ec3c8d1U, 0xbe3085153f0a94b8U, 0xbf6325983ee280fcU, 0xbebcb2dcbeb807f7U,
  0x3ed994b8bedaa751U, 0x3f3492d03e57946dU, 0x3e5f05b03cd21f81U, 0xbf8822723dcf9c23U,
  0x3e740b103e6dce5fU, 0xbea76c743e86546cU, 0xbe810eea3f191239U, 0x3f0813bdbf805369U,
  0xbf321964bfcb8754U, 0xbf979a19be29464bU, 0x3e569d42beef76c0U, 0xbf263032be46d2f6U,
  0xbfa3f702be606457U, 0xbff4005c3e9a85eaU, 0xbe7710b13f0ee182U, 0x3c69692ebd3a01e7U,
  0xbe089aac3eb41d26U, 0x3e458966bfd42adeU, 0xbf53d323bf9f997fU, 0x3eff6429beb11d1fU,
  0x3eb65350bfc094fbU, 0x3f4bd217bf9b2adaU, 0x3f2689a5bf901690U, 0xbfaf21a6bfba227fU,
  0x3e8df0a4bf2085a5U, 0x3e176fc0bf1fcd10U, 0x3eab53903ed9e254U, 0xbf721947bfdd3cb1U,
  0x3f10592f3e074835U, 0xbf9a150ebf761169U, 0x3e788a093edd8135U, 0xbf63a4c43eba8c1bU,
  0xbea66f793b69a041U, 0xbdf96552bf2a606aU, 0xbfa4f7aabf8547f9U, 0xbf6174b73d8f0e49U,
  0xbd62ef57bf999545U, 0xbf069dff3e70788cU, 0x3ee2a03abf78be67U, 0xbf01ec03bf371916U,
  0xbf30d6fe3eb637d0U, 0x3eba1f9fbf2ec08fU, 0x3e1b89d5bf29cb2eU, 0xbf8f25e33f09886bU,
  0xbf8f542abfac9656U, 0xbea8e3a03e4f91d1U, 0x3ebcfae7bed07c8cU, 0xbfa9ee9fbf8d7425U,
  0x3eaa39e23e74e868U, 0x3e9707443e8e1b8fU, 0xbf481adfbfa2a31fU, 0xbfa26ffa3e8b6556U,
  0xbf81cf04bf42272bU, 0xbe6a5ed53e9ff0e8U, 0xbf90ece83e23a83aU, 0xbf3de9a6bf4e0168U,
  0x3e66f853bf439612U, 0xbfcf8787be91304aU, 0xbf6a830a3eb8fcb1U, 0x3f1d7bebbfa7d476U,
  0xbf954e3c3eb20b7cU, 0x3f0654823ef898a3U, 0x3e3e9904beb1b2e1U, 0x3ec8eb953e0a9e73U,
  0x3e0270033ee62a65U, 0x3ea425c33edfcc83U, 0x3e5050033ec73fe1U, 0x3e9ef4363d479cf0U,
  0x3e6cc6ecbfa3c572U, 0x3f11447e3e4b5811U, 0x3ed661eabf80bffcU, 0x3ebdf44a3f2041e7U,
  0xbf0eee6a3eb2f74eU, 0x3e8b5ad13ea0d192U, 0x3d23302f3f02a34eU, 0xbed85119bf2b1d1dU,
  0xbf7b1cb43f10b211U, 0x3de0573e3e5e9e1cU, 0x3db941b2be4b4ca1U, 0xbf5c00ccbde032c4U,
  0x3e8f3ebdbf582c0aU, 0x3ed57633bc7a3056U, 0x3ebed7c1bf5bdb85U, 0x3e2045983e86d8ffU,
  0x3e92bc963f5e1986U, 0xbfd718b6bf0e4a53U, 0x3eb74decbea9eed2U, 0x3e976e3f3e929837U,
  0xc017c0ffbd507872U, 0x3e84f6abbf8bfa72U, 0xbf393c56c0078fc0U, 0xbeb6d6483e6e66cdU,
  0xbef8c469bf215dd0U, 0xbe1f91eebf94a533U, 0xc004c6d8bff0a628U, 0xbf83522fbfaa00afU,
  0xbfb53ecdbfce0e39U, 0xbfd94105bf41e6eaU, 0xbe893fbbbf81f46bU, 0x3ec4e00fc022c5adU,
  0xbffda3eb3ec24c36U, 0xbf9b3472bf756b41U, 0xc0193d2f3e733150U, 0xbfcd80043efdd262U,
  0x3f6f4590bdc114dcU, 0xbfd2c6a2bfb3d500U, 0xc03189f6bfc7cfebU, 0x3f846f573e727c14U,
  0x3e8e67933e95fc85U, 0x3e27ea31bc59cd8fU, 0x3eb90ddabfe2b0dcU, 0x3e768c783e8a717aU,
  0xbf5c1484bfdf927fU, 0xbfe1a2e83e4503efU, 0x3ea8bba93f7a7720U, 0x3ec0af51c008e6baU,
  0x3e89befbbf5eb2c1U, 0x3f1a69183f3e4581U, 0xbeb42f31beaa1f35U, 0x3e5ddfef3e913298U,
  0x3e6b6551bdea506aU, 0x3e675ac63f1f9a9fU, 0xbf2631b23eb9d0fcU, 0xbee1d3083e45da73U,
  0xbef405d9bf026420U, 0xbe028cbf3ea901b8U, 0x3e4fc6d43e8602a1U, 0x3eb399a93eb4e7edU,
  0x3f7a0d973ed14ed3U, 0x3eecf0003ecc355eU, 0xbed76e353e837ac5U, 0x3e9ed94cbc9b72b5U,
  0x3f77a6513ea6a8c7U, 0x3ef6db4bbf061526U, 0x3ec912db3e4fa718U, 0x3f28b6fbbe97241fU,
  0xbf61790c3e70a9bbU, 0x3ea95b5c3ea91fa4U, 0x3e21fa8a3ec45abcU, 0xbf2d4891becde0a1U,
  0x3e824999be17ee8cU, 0x3e03ad04bef8d0bdU, 0xbf5fbd0e3f989615U, 0x3e8ad7bdbee97db3U,
  0xbef9a9973e64f056U, 0x3eb53303bf0545c7U, 0x3e83d16cbf1e2918U, 0xbe7cf7f03e513281U,
  0x3f24980dbdc531cbU, 0x3f3ac109bec3e7aeU, 0xbf483933U,
};


ai_handle g_predictive_maintenance_model_weights_table[1 + 2] = {
  AI_HANDLE_PTR(AI_MAGIC_MARKER),
  AI_HANDLE_PTR(s_predictive_maintenance_model_weights_array_u64),
  AI_HANDLE_PTR(AI_MAGIC_MARKER),
};

